custom_quantize_layers:
    '877': float16
    '507': float16
    '511': float16
    '883': float16
    '886': float16
    '519': float16
    '847': float16
    '837': float16
    '821': float16


quantize_parameters:
    images:
        qtype: asymmetric_quantized
        qmethod: layer
        dtype: int8
        min:
        -   0.0
        max:
        -   255.0
        scale:
        -   1.0
        zero_point:
        -   -128
        ori_min:
        -   0.0
        ori_max:
        -   255.0
    '467':
        qtype: asymmetric_quantized
        qmethod: layer
        dtype: int8
        min:
        -   0.0
        max:
        -   255.0
        scale:
        -   1.0
        zero_point:
        -   -128
        ori_min:
        -   0.0
        ori_max:
        -   255.0
    '472':
        qtype: asymmetric_quantized
        qmethod: layer
        dtype: int8
        min:
        -   0.0
        max:
        -   255.0
        scale:
        -   1.0
        zero_point:
        -   -128
        ori_min:
        -   0.0
        ori_max:
        -   255.0
    '477':
        qtype: asymmetric_quantized
        qmethod: layer
        dtype: int8
        min:
        -   0.0
        max:
        -   255.0
        scale:
        -   1.0
        zero_point:
        -   -128
        ori_min:
        -   0.0
        ori_max:
        -   255.0
    '482':
        qtype: asymmetric_quantized
        qmethod: layer
        dtype: int8
        min:
        -   0.0
        max:
        -   255.0
        scale:
        -   1.0
        zero_point:
        -   -128
        ori_min:
        -   0.0
        ori_max:
        -   255.0
    '487':
        qtype: asymmetric_quantized
        qmethod: layer
        dtype: int8
        min:
        -   0.0
        max:
        -   255.0
        scale:
        -   1.0
        zero_point:
        -   -128
        ori_min:
        -   0.0
        ori_max:
        -   255.0
    '492':
        qtype: asymmetric_quantized
        qmethod: layer
        dtype: int8
        min:
        -   0.0
        max:
        -   255.0
        scale:
        -   1.0
        zero_point:
        -   -128
        ori_min:
        -   0.0
        ori_max:
        -   255.0
    '497':
        qtype: asymmetric_quantized
        qmethod: layer
        dtype: int8
        min:
        -   0.0
        max:
        -   255.0
        scale:
        -   1.0
        zero_point:
        -   -128
        ori_min:
        -   0.0
        ori_max:
        -   255.0
    '502':
        qtype: asymmetric_quantized
        qmethod: layer
        dtype: int8
        min:
        -   0.0
        max:
        -   255.0
        scale:
        -   1.0
        zero_point:
        -   -128
        ori_min:
        -   0.0
        ori_max:
        -   255.0
    '503':
        qtype: asymmetric_quantized
        qmethod: layer
        dtype: int8
        min:
        -   0.0
        max:
        -   255.0
        scale:
        -   1.0
        zero_point:
        -   -128
        ori_min:
        -   0.0
        ori_max:
        -   255.0
    '877':
        qtype: asymmetric_quantized
        qmethod: layer
        dtype: int8
        min:
        -   -6.3
        max:
        -   6.3
        scale:
        -   0.04941176470588235
        zero_point:
        -   0
        ori_min:
        -   -78.45491027832031
        ori_max:
        -   83.23056030273438
    '506':
        qtype: asymmetric_quantized
        qmethod: layer
        dtype: int8
        min:
        -   0.0
        max:
        -   1.0000001192092896
        scale:
        -   0.00392156909493839
        zero_point:
        -   -128
        ori_min:
        -   0.0
        ori_max:
        -   1.0000001192092896
    '507':
        qtype: asymmetric_quantized
        qmethod: layer
        dtype: int8
        min:
        -   -0.2784646153450012
        max:
        -   83.23056030273438
        scale:
        -   0.3274863722277623
        zero_point:
        -   -127
        ori_min:
        -   -0.2784646153450012
        ori_max:
        -   83.23056030273438
    '880':
        qtype: asymmetric_quantized
        qmethod: layer
        dtype: int8
        min:
        -   -6.3
        max:
        -   6.3
        scale:
        -   0.04941176470588235
        zero_point:
        -   0
        ori_min:
        -   -170.09722900390625
        ori_max:
        -   175.7322235107422
    '510':
        qtype: asymmetric_quantized
        qmethod: layer
        dtype: int8
        min:
        -   0.0
        max:
        -   1.0000001192092896
        scale:
        -   0.00392156909493839
        zero_point:
        -   -128
        ori_min:
        -   0.0
        ori_max:
        -   1.0000001192092896
    '511':
        qtype: asymmetric_quantized
        qmethod: layer
        dtype: int8
        min:
        -   -0.2784646153450012
        max:
        -   175.7322235107422
        scale:
        -   0.6902379926513224
        zero_point:
        -   -128
        ori_min:
        -   -0.2784646153450012
        ori_max:
        -   175.7322235107422
    '883':
        qtype: asymmetric_quantized
        qmethod: layer
        dtype: int8
        min:
        -   -6.3
        max:
        -   6.3
        scale:
        -   0.04941176470588235
        zero_point:
        -   0
        ori_min:
        -   -95.660400390625
        ori_max:
        -   14.5317964553833
    '514':
        qtype: asymmetric_quantized
        qmethod: layer
        dtype: int8
        min:
        -   0.0
        max:
        -   0.9999995231628418
        scale:
        -   0.003921566757501341
        zero_point:
        -   -128
        ori_min:
        -   0.0
        ori_max:
        -   0.9999995231628418
    '515':
        qtype: asymmetric_quantized
        qmethod: layer
        dtype: int8
        min:
        -   -0.2784646153450012
        max:
        -   14.53178882598877
        scale:
        -   0.05807942526013243
        zero_point:
        -   -123
        ori_min:
        -   -0.2784646153450012
        ori_max:
        -   14.53178882598877
    '886':
        qtype: asymmetric_quantized
        qmethod: layer
        dtype: int8
        min:
        -   -6.3
        max:
        -   6.3
        scale:
        -   0.04941176470588235
        zero_point:
        -   0
        ori_min:
        -   -139.061767578125
        ori_max:
        -   36.49410629272461
    '518':
        qtype: asymmetric_quantized
        qmethod: layer
        dtype: int8
        min:
        -   0.0
        max:
        -   1.0
        scale:
        -   0.00392156862745098
        zero_point:
        -   -128
        ori_min:
        -   0.0
        ori_max:
        -   1.0
    '519':
        qtype: asymmetric_quantized
        qmethod: layer
        dtype: int8
        min:
        -   -0.5569291114807129
        max:
        -   39.46338653564453
        scale:
        -   0.15694241430245193
        zero_point:
        -   -124
        ori_min:
        -   -0.2784646153450012
        ori_max:
        -   36.49410629272461
    '889':
        qtype: asymmetric_quantized
        qmethod: layer
        dtype: int8
        min:
        -   -6.3
        max:
        -   6.3
        scale:
        -   0.04941176470588235
        zero_point:
        -   0
        ori_min:
        -   -51.53288650512695
        ori_max:
        -   20.71764373779297
    '522':
        qtype: asymmetric_quantized
        qmethod: layer
        dtype: int8
        min:
        -   0.0
        max:
        -   1.0
        scale:
        -   0.00392156862745098
        zero_point:
        -   -128
        ori_min:
        -   0.0
        ori_max:
        -   1.0
    '523':
        qtype: asymmetric_quantized
        qmethod: layer
        dtype: int8
        min:
        -   -0.2784646153450012
        max:
        -   20.71764373779297
        scale:
        -   0.08233767981622733
        zero_point:
        -   -125
        ori_min:
        -   -0.2784646153450012
        ori_max:
        -   20.71764373779297
    '892':
        qtype: asymmetric_quantized
        qmethod: layer
        dtype: int8
        min:
        -   -6.3
        max:
        -   6.3
        scale:
        -   0.04941176470588235
        zero_point:
        -   0
        ori_min:
        -   -41.62837219238281
        ori_max:
        -   39.463478088378906
    '526':
        qtype: asymmetric_quantized
        qmethod: layer
        dtype: int8
        min:
        -   0.0
        max:
        -   1.0
        scale:
        -   0.00392156862745098
        zero_point:
        -   -128
        ori_min:
        -   0.0
        ori_max:
        -   1.0
    '527':
        qtype: asymmetric_quantized
        qmethod: layer
        dtype: int8
        min:
        -   -0.2784646153450012
        max:
        -   39.463478088378906
        scale:
        -   0.15585075570087806
        zero_point:
        -   -126
        ori_min:
        -   -0.2784646153450012
        ori_max:
        -   39.463478088378906
    '528':
        qtype: asymmetric_quantized
        qmethod: layer
        dtype: int8
        min:
        -   -0.5569291114807129
        max:
        -   39.46338653564453
        scale:
        -   0.15694241430245193
        zero_point:
        -   -124
        ori_min:
        -   -0.5569291114807129
        ori_max:
        -   39.46338653564453
    '529':
        qtype: asymmetric_quantized
        qmethod: layer
        dtype: int8
        min:
        -   -0.5569291114807129
        max:
        -   39.46338653564453
        scale:
        -   0.15694241430245193
        zero_point:
        -   -124
        ori_min:
        -   -0.5569291114807129
        ori_max:
        -   39.46338653564453
    '895':
        qtype: asymmetric_quantized
        qmethod: layer
        dtype: int8
        min:
        -   -6.3
        max:
        -   6.3
        scale:
        -   0.04941176470588235
        zero_point:
        -   0
        ori_min:
        -   -46.05665969848633
        ori_max:
        -   33.171363830566406
    '532':
        qtype: asymmetric_quantized
        qmethod: layer
        dtype: int8
        min:
        -   0.0
        max:
        -   1.0
        scale:
        -   0.00392156862745098
        zero_point:
        -   -128
        ori_min:
        -   0.0
        ori_max:
        -   1.0
    '533':
        qtype: asymmetric_quantized
        qmethod: layer
        dtype: int8
        min:
        -   -0.2784646153450012
        max:
        -   33.171363830566406
        scale:
        -   0.13117579782710356
        zero_point:
        -   -126
        ori_min:
        -   -0.2784646153450012
        ori_max:
        -   33.171363830566406
    '898':
        qtype: asymmetric_quantized
        qmethod: layer
        dtype: int8
        min:
        -   -6.3
        max:
        -   6.3
        scale:
        -   0.04941176470588235
        zero_point:
        -   0
        ori_min:
        -   -22.224714279174805
        ori_max:
        -   18.114330291748047
    '536':
        qtype: asymmetric_quantized
        qmethod: layer
        dtype: int8
        min:
        -   0.0
        max:
        -   1.0
        scale:
        -   0.00392156862745098
        zero_point:
        -   -128
        ori_min:
        -   0.0
        ori_max:
        -   1.0
    '537':
        qtype: asymmetric_quantized
        qmethod: layer
        dtype: int8
        min:
        -   -0.2784646153450012
        max:
        -   18.114330291748047
        scale:
        -   0.07212860747879626
        zero_point:
        -   -124
        ori_min:
        -   -0.2784646153450012
        ori_max:
        -   18.114330291748047
    '901':
        qtype: asymmetric_quantized
        qmethod: layer
        dtype: int8
        min:
        -   -6.3
        max:
        -   5.436197757720947
        scale:
        -   0.04602430493223901
        zero_point:
        -   9
        ori_min:
        -   -8.798120498657227
        ori_max:
        -   5.436197757720947
    '540':
        qtype: asymmetric_quantized
        qmethod: layer
        dtype: int8
        min:
        -   0.0
        max:
        -   0.9956628084182739
        scale:
        -   0.003904560033012839
        zero_point:
        -   -128
        ori_min:
        -   0.00015097856521606445
        ori_max:
        -   0.9956628084182739
    '541':
        qtype: asymmetric_quantized
        qmethod: layer
        dtype: int8
        min:
        -   -0.2784646153450012
        max:
        -   5.4126200675964355
        scale:
        -   0.022317979148789947
        zero_point:
        -   -116
        ori_min:
        -   -0.2784646153450012
        ori_max:
        -   5.4126200675964355
    '904':
        qtype: asymmetric_quantized
        qmethod: layer
        dtype: int8
        min:
        -   -6.3
        max:
        -   6.3
        scale:
        -   0.04941176470588235
        zero_point:
        -   0
        ori_min:
        -   -19.486539840698242
        ori_max:
        -   15.048481941223145
    '544':
        qtype: asymmetric_quantized
        qmethod: layer
        dtype: int8
        min:
        -   0.0
        max:
        -   0.9999997019767761
        scale:
        -   0.003921567458732456
        zero_point:
        -   -128
        ori_min:
        -   0.0
        ori_max:
        -   0.9999997019767761
    '545':
        qtype: asymmetric_quantized
        qmethod: layer
        dtype: int8
        min:
        -   -1.113411545753479
        max:
        -   15.048477172851562
        scale:
        -   0.06337995575923545
        zero_point:
        -   -110
        ori_min:
        -   -0.2784646153450012
        ori_max:
        -   15.048477172851562
    '907':
        qtype: asymmetric_quantized
        qmethod: layer
        dtype: int8
        min:
        -   -6.3
        max:
        -   6.3
        scale:
        -   0.04941176470588235
        zero_point:
        -   0
        ori_min:
        -   -17.90164566040039
        ori_max:
        -   19.105064392089844
    '548':
        qtype: asymmetric_quantized
        qmethod: layer
        dtype: int8
        min:
        -   0.0
        max:
        -   1.0
        scale:
        -   0.00392156862745098
        zero_point:
        -   -128
        ori_min:
        -   0.0
        ori_max:
        -   1.0
    '549':
        qtype: asymmetric_quantized
        qmethod: layer
        dtype: int8
        min:
        -   -0.2784646153450012
        max:
        -   19.105064392089844
        scale:
        -   0.07601383924484253
        zero_point:
        -   -124
        ori_min:
        -   -0.2784646153450012
        ori_max:
        -   19.105064392089844
    '910':
        qtype: asymmetric_quantized
        qmethod: layer
        dtype: int8
        min:
        -   -6.3
        max:
        -   6.3
        scale:
        -   0.04941176470588235
        zero_point:
        -   0
        ori_min:
        -   -9.303662300109863
        ori_max:
        -   6.656670093536377
    '552':
        qtype: asymmetric_quantized
        qmethod: layer
        dtype: int8
        min:
        -   0.0
        max:
        -   0.9987162351608276
        scale:
        -   0.003916534255532658
        zero_point:
        -   -128
        ori_min:
        -   9.107589721679688e-05
        ori_max:
        -   0.9987162351608276
    '553':
        qtype: asymmetric_quantized
        qmethod: layer
        dtype: int8
        min:
        -   -0.2784646153450012
        max:
        -   6.648124694824219
        scale:
        -   0.02716309533399694
        zero_point:
        -   -118
        ori_min:
        -   -0.2784646153450012
        ori_max:
        -   6.648124694824219
    '554':
        qtype: asymmetric_quantized
        qmethod: layer
        dtype: int8
        min:
        -   -0.5569290518760681
        max:
        -   7.586317539215088
        scale:
        -   0.03193430035722022
        zero_point:
        -   -111
        ori_min:
        -   -0.5569290518760681
        ori_max:
        -   7.586317539215088
    '913':
        qtype: asymmetric_quantized
        qmethod: layer
        dtype: int8
        min:
        -   -6.3
        max:
        -   6.3
        scale:
        -   0.04941176470588235
        zero_point:
        -   0
        ori_min:
        -   -15.274690628051758
        ori_max:
        -   13.18168830871582
    '557':
        qtype: asymmetric_quantized
        qmethod: layer
        dtype: int8
        min:
        -   0.0
        max:
        -   0.9999980926513672
        scale:
        -   0.00392156114765242
        zero_point:
        -   -128
        ori_min:
        -   2.384185791015625e-07
        ori_max:
        -   0.9999980926513672
    '558':
        qtype: asymmetric_quantized
        qmethod: layer
        dtype: int8
        min:
        -   -0.2784646153450012
        max:
        -   13.181663513183594
        scale:
        -   0.05278481619030822
        zero_point:
        -   -123
        ori_min:
        -   -0.2784646153450012
        ori_max:
        -   13.181663513183594
    '916':
        qtype: asymmetric_quantized
        qmethod: layer
        dtype: int8
        min:
        -   -6.3
        max:
        -   6.3
        scale:
        -   0.04941176470588235
        zero_point:
        -   0
        ori_min:
        -   -15.387674331665039
        ori_max:
        -   13.781063079833984
    '561':
        qtype: asymmetric_quantized
        qmethod: layer
        dtype: int8
        min:
        -   0.0
        max:
        -   0.9999989867210388
        scale:
        -   0.003921564653807995
        zero_point:
        -   -128
        ori_min:
        -   2.384185791015625e-07
        ori_max:
        -   0.9999989867210388
    '562':
        qtype: asymmetric_quantized
        qmethod: layer
        dtype: int8
        min:
        -   -0.2784646153450012
        max:
        -   13.781048774719238
        scale:
        -   0.0551353466277029
        zero_point:
        -   -123
        ori_min:
        -   -0.2784646153450012
        ori_max:
        -   13.781048774719238
    '563':
        qtype: asymmetric_quantized
        qmethod: layer
        dtype: int8
        min:
        -   -0.8353866338729858
        max:
        -   13.245481491088867
        scale:
        -   0.05521909068612491
        zero_point:
        -   -113
        ori_min:
        -   -0.8353866338729858
        ori_max:
        -   13.245481491088867
    '919':
        qtype: asymmetric_quantized
        qmethod: layer
        dtype: int8
        min:
        -   -6.3
        max:
        -   6.3
        scale:
        -   0.04941176470588235
        zero_point:
        -   0
        ori_min:
        -   -20.554046630859375
        ori_max:
        -   10.280159950256348
    '566':
        qtype: asymmetric_quantized
        qmethod: layer
        dtype: int8
        min:
        -   0.0
        max:
        -   0.9999656677246094
        scale:
        -   0.0039214339910769
        zero_point:
        -   -128
        ori_min:
        -   0.0
        ori_max:
        -   0.9999656677246094
    '567':
        qtype: asymmetric_quantized
        qmethod: layer
        dtype: int8
        min:
        -   -0.2784646153450012
        max:
        -   10.279807090759277
        scale:
        -   0.04140498708276188
        zero_point:
        -   -121
        ori_min:
        -   -0.2784646153450012
        ori_max:
        -   10.279807090759277
    '922':
        qtype: asymmetric_quantized
        qmethod: layer
        dtype: int8
        min:
        -   -6.3
        max:
        -   6.3
        scale:
        -   0.04941176470588235
        zero_point:
        -   0
        ori_min:
        -   -15.466854095458984
        ori_max:
        -   12.239923477172852
    '570':
        qtype: asymmetric_quantized
        qmethod: layer
        dtype: int8
        min:
        -   0.0
        max:
        -   0.9999951720237732
        scale:
        -   0.003921549694210875
        zero_point:
        -   -128
        ori_min:
        -   1.7881393432617188e-07
        ori_max:
        -   0.9999951720237732
    '571':
        qtype: asymmetric_quantized
        qmethod: layer
        dtype: int8
        min:
        -   -0.2784646153450012
        max:
        -   12.239864349365234
        scale:
        -   0.04909148613611857
        zero_point:
        -   -122
        ori_min:
        -   -0.2784646153450012
        ori_max:
        -   12.239864349365234
    '572':
        qtype: asymmetric_quantized
        qmethod: layer
        dtype: int8
        min:
        -   -1.113411545753479
        max:
        -   15.048477172851562
        scale:
        -   0.06337995575923545
        zero_point:
        -   -110
        ori_min:
        -   -1.113411545753479
        ori_max:
        -   13.098782539367676
    '573':
        qtype: asymmetric_quantized
        qmethod: layer
        dtype: int8
        min:
        -   -1.113411545753479
        max:
        -   15.048477172851562
        scale:
        -   0.06337995575923545
        zero_point:
        -   -110
        ori_min:
        -   -1.113411545753479
        ori_max:
        -   15.048477172851562
    '925':
        qtype: asymmetric_quantized
        qmethod: layer
        dtype: int8
        min:
        -   -6.3
        max:
        -   6.3
        scale:
        -   0.04941176470588235
        zero_point:
        -   0
        ori_min:
        -   -13.036093711853027
        ori_max:
        -   12.038507461547852
    '576':
        qtype: asymmetric_quantized
        qmethod: layer
        dtype: int8
        min:
        -   0.0
        max:
        -   0.9999940395355225
        scale:
        -   0.00392154525308048
        zero_point:
        -   -128
        ori_min:
        -   2.205371856689453e-06
        ori_max:
        -   0.9999940395355225
    '577':
        qtype: asymmetric_quantized
        qmethod: layer
        dtype: int8
        min:
        -   -0.2784646153450012
        max:
        -   12.038435935974121
        scale:
        -   0.048301570789486756
        zero_point:
        -   -122
        ori_min:
        -   -0.2784646153450012
        ori_max:
        -   12.038435935974121
    '928':
        qtype: asymmetric_quantized
        qmethod: layer
        dtype: int8
        min:
        -   -6.3
        max:
        -   6.3
        scale:
        -   0.04941176470588235
        zero_point:
        -   0
        ori_min:
        -   -12.338802337646484
        ori_max:
        -   12.384191513061523
    '580':
        qtype: asymmetric_quantized
        qmethod: layer
        dtype: int8
        min:
        -   0.0
        max:
        -   0.999995768070221
        scale:
        -   0.003921552031647926
        zero_point:
        -   -128
        ori_min:
        -   4.351139068603516e-06
        ori_max:
        -   0.999995768070221
    '581':
        qtype: asymmetric_quantized
        qmethod: layer
        dtype: int8
        min:
        -   -0.2784646153450012
        max:
        -   12.384139060974121
        scale:
        -   0.049657269318898516
        zero_point:
        -   -122
        ori_min:
        -   -0.2784646153450012
        ori_max:
        -   12.384139060974121
    '931':
        qtype: asymmetric_quantized
        qmethod: layer
        dtype: int8
        min:
        -   -6.3
        max:
        -   4.858911037445068
        scale:
        -   0.04376043544096105
        zero_point:
        -   16
        ori_min:
        -   -8.715156555175781
        ori_max:
        -   4.858911037445068
    '584':
        qtype: asymmetric_quantized
        qmethod: layer
        dtype: int8
        min:
        -   0.0
        max:
        -   0.9923007488250732
        scale:
        -   0.0038913754855885224
        zero_point:
        -   -128
        ori_min:
        -   0.0001640617847442627
        ori_max:
        -   0.9923007488250732
    '585':
        qtype: asymmetric_quantized
        qmethod: layer
        dtype: int8
        min:
        -   -0.2784646153450012
        max:
        -   4.8215012550354
        scale:
        -   0.019999866158354515
        zero_point:
        -   -114
        ori_min:
        -   -0.2784646153450012
        ori_max:
        -   4.8215012550354
    '934':
        qtype: asymmetric_quantized
        qmethod: layer
        dtype: int8
        min:
        -   -6.3
        max:
        -   6.3
        scale:
        -   0.04941176470588235
        zero_point:
        -   0
        ori_min:
        -   -15.660125732421875
        ori_max:
        -   18.54730987548828
    '588':
        qtype: asymmetric_quantized
        qmethod: layer
        dtype: int8
        min:
        -   0.0
        max:
        -   1.0
        scale:
        -   0.00392156862745098
        zero_point:
        -   -128
        ori_min:
        -   1.4901161193847656e-07
        ori_max:
        -   1.0
    '589':
        qtype: asymmetric_quantized
        qmethod: layer
        dtype: int8
        min:
        -   -1.1136658191680908
        max:
        -   18.54730987548828
        scale:
        -   0.07710186546924068
        zero_point:
        -   -114
        ori_min:
        -   -0.2784646153450012
        ori_max:
        -   18.54730987548828
    '937':
        qtype: asymmetric_quantized
        qmethod: layer
        dtype: int8
        min:
        -   -6.3
        max:
        -   6.3
        scale:
        -   0.04941176470588235
        zero_point:
        -   0
        ori_min:
        -   -12.965788841247559
        ori_max:
        -   15.605388641357422
    '592':
        qtype: asymmetric_quantized
        qmethod: layer
        dtype: int8
        min:
        -   0.0
        max:
        -   0.9999998807907104
        scale:
        -   0.0039215681599635704
        zero_point:
        -   -128
        ori_min:
        -   2.3245811462402344e-06
        ori_max:
        -   0.9999998807907104
    '593':
        qtype: asymmetric_quantized
        qmethod: layer
        dtype: int8
        min:
        -   -0.2784646153450012
        max:
        -   15.605386734008789
        scale:
        -   0.06228961313472075
        zero_point:
        -   -124
        ori_min:
        -   -0.2784646153450012
        ori_max:
        -   15.605386734008789
    '940':
        qtype: asymmetric_quantized
        qmethod: layer
        dtype: int8
        min:
        -   -6.3
        max:
        -   5.890511512756348
        scale:
        -   0.04780592750100529
        zero_point:
        -   4
        ori_min:
        -   -7.044473171234131
        ori_max:
        -   5.890511512756348
    '596':
        qtype: asymmetric_quantized
        qmethod: layer
        dtype: int8
        min:
        -   0.0
        max:
        -   0.9972420334815979
        scale:
        -   0.003910753072476855
        zero_point:
        -   -128
        ori_min:
        -   0.0008714795112609863
        ori_max:
        -   0.9972420334815979
    '597':
        qtype: asymmetric_quantized
        qmethod: layer
        dtype: int8
        min:
        -   -0.2784646153450012
        max:
        -   5.874265670776367
        scale:
        -   0.02412835406322105
        zero_point:
        -   -116
        ori_min:
        -   -0.2784646153450012
        ori_max:
        -   5.874265670776367
    '598':
        qtype: asymmetric_quantized
        qmethod: layer
        dtype: int8
        min:
        -   -0.5569289922714233
        max:
        -   5.875188827514648
        scale:
        -   0.025223991450141457
        zero_point:
        -   -106
        ori_min:
        -   -0.5569289922714233
        ori_max:
        -   5.875188827514648
    '943':
        qtype: asymmetric_quantized
        qmethod: layer
        dtype: int8
        min:
        -   -6.3
        max:
        -   6.3
        scale:
        -   0.04941176470588235
        zero_point:
        -   0
        ori_min:
        -   -13.364455223083496
        ori_max:
        -   12.573596954345703
    '601':
        qtype: asymmetric_quantized
        qmethod: layer
        dtype: int8
        min:
        -   0.0
        max:
        -   0.999996542930603
        scale:
        -   0.00392155507031609
        zero_point:
        -   -128
        ori_min:
        -   1.5497207641601562e-06
        ori_max:
        -   0.999996542930603
    '602':
        qtype: asymmetric_quantized
        qmethod: layer
        dtype: int8
        min:
        -   -0.2784646153450012
        max:
        -   12.573553085327148
        scale:
        -   0.05040006941440059
        zero_point:
        -   -122
        ori_min:
        -   -0.2784646153450012
        ori_max:
        -   12.573553085327148
    '946':
        qtype: asymmetric_quantized
        qmethod: layer
        dtype: int8
        min:
        -   -6.3
        max:
        -   6.3
        scale:
        -   0.04941176470588235
        zero_point:
        -   0
        ori_min:
        -   -8.751941680908203
        ori_max:
        -   9.869473457336426
    '605':
        qtype: asymmetric_quantized
        qmethod: layer
        dtype: int8
        min:
        -   0.0
        max:
        -   0.999948263168335
        scale:
        -   0.003921365737915039
        zero_point:
        -   -128
        ori_min:
        -   0.00015816092491149902
        ori_max:
        -   0.999948263168335
    '606':
        qtype: asymmetric_quantized
        qmethod: layer
        dtype: int8
        min:
        -   -0.2784646153450012
        max:
        -   9.868963241577148
        scale:
        -   0.03979383473302804
        zero_point:
        -   -121
        ori_min:
        -   -0.2784646153450012
        ori_max:
        -   9.868963241577148
    '607':
        qtype: asymmetric_quantized
        qmethod: layer
        dtype: int8
        min:
        -   -0.8353652358055115
        max:
        -   10.09787654876709
        scale:
        -   0.042875457978716086
        zero_point:
        -   -109
        ori_min:
        -   -0.8353652358055115
        ori_max:
        -   10.09787654876709
    '949':
        qtype: asymmetric_quantized
        qmethod: layer
        dtype: int8
        min:
        -   -6.3
        max:
        -   6.3
        scale:
        -   0.04941176470588235
        zero_point:
        -   0
        ori_min:
        -   -11.532331466674805
        ori_max:
        -   12.621882438659668
    '610':
        qtype: asymmetric_quantized
        qmethod: layer
        dtype: int8
        min:
        -   0.0
        max:
        -   0.9999966621398926
        scale:
        -   0.003921555537803501
        zero_point:
        -   -128
        ori_min:
        -   9.834766387939453e-06
        ori_max:
        -   0.9999966621398926
    '611':
        qtype: asymmetric_quantized
        qmethod: layer
        dtype: int8
        min:
        -   -0.2784646153450012
        max:
        -   12.621840476989746
        scale:
        -   0.05058943173464607
        zero_point:
        -   -122
        ori_min:
        -   -0.2784646153450012
        ori_max:
        -   12.621840476989746
    '952':
        qtype: asymmetric_quantized
        qmethod: layer
        dtype: int8
        min:
        -   -6.3
        max:
        -   6.3
        scale:
        -   0.04941176470588235
        zero_point:
        -   0
        ori_min:
        -   -10.596495628356934
        ori_max:
        -   12.783055305480957
    '614':
        qtype: asymmetric_quantized
        qmethod: layer
        dtype: int8
        min:
        -   0.0
        max:
        -   0.9999971389770508
        scale:
        -   0.00392155740775314
        zero_point:
        -   -128
        ori_min:
        -   2.5033950805664062e-05
        ori_max:
        -   0.9999971389770508
    '615':
        qtype: asymmetric_quantized
        qmethod: layer
        dtype: int8
        min:
        -   -0.2784646153450012
        max:
        -   12.783019065856934
        scale:
        -   0.05122150463216445
        zero_point:
        -   -123
        ori_min:
        -   -0.2784646153450012
        ori_max:
        -   12.783019065856934
    '616':
        qtype: asymmetric_quantized
        qmethod: layer
        dtype: int8
        min:
        -   -1.1136658191680908
        max:
        -   18.54730987548828
        scale:
        -   0.07710186546924068
        zero_point:
        -   -114
        ori_min:
        -   -1.1136658191680908
        ori_max:
        -   16.299602508544922
    '617':
        qtype: asymmetric_quantized
        qmethod: layer
        dtype: int8
        min:
        -   -1.1136658191680908
        max:
        -   18.54730987548828
        scale:
        -   0.07710186546924068
        zero_point:
        -   -114
        ori_min:
        -   -1.1136658191680908
        ori_max:
        -   18.54730987548828
    '955':
        qtype: asymmetric_quantized
        qmethod: layer
        dtype: int8
        min:
        -   -6.3
        max:
        -   6.3
        scale:
        -   0.04941176470588235
        zero_point:
        -   0
        ori_min:
        -   -12.162315368652344
        ori_max:
        -   13.066794395446777
    '620':
        qtype: asymmetric_quantized
        qmethod: layer
        dtype: int8
        min:
        -   0.0
        max:
        -   0.9999978542327881
        scale:
        -   0.0039215602126776005
        zero_point:
        -   -128
        ori_min:
        -   5.185604095458984e-06
        ori_max:
        -   0.9999978542327881
    '621':
        qtype: asymmetric_quantized
        qmethod: layer
        dtype: int8
        min:
        -   -0.2784646153450012
        max:
        -   13.066766738891602
        scale:
        -   0.052334240604849425
        zero_point:
        -   -123
        ori_min:
        -   -0.2784646153450012
        ori_max:
        -   13.066766738891602
    '958':
        qtype: asymmetric_quantized
        qmethod: layer
        dtype: int8
        min:
        -   -6.3
        max:
        -   6.3
        scale:
        -   0.04941176470588235
        zero_point:
        -   0
        ori_min:
        -   -12.828179359436035
        ori_max:
        -   11.14078140258789
    '624':
        qtype: asymmetric_quantized
        qmethod: layer
        dtype: int8
        min:
        -   0.0
        max:
        -   0.9999854564666748
        scale:
        -   0.00392151159398696
        zero_point:
        -   -128
        ori_min:
        -   2.682209014892578e-06
        ori_max:
        -   0.9999854564666748
    '625':
        qtype: asymmetric_quantized
        qmethod: layer
        dtype: int8
        min:
        -   -0.2784646153450012
        max:
        -   11.140619277954102
        scale:
        -   0.04478072115019256
        zero_point:
        -   -122
        ori_min:
        -   -0.2784646153450012
        ori_max:
        -   11.140619277954102
    '961':
        qtype: asymmetric_quantized
        qmethod: layer
        dtype: int8
        min:
        -   -6.3
        max:
        -   6.3
        scale:
        -   0.04941176470588235
        zero_point:
        -   0
        ori_min:
        -   -6.601205825805664
        ori_max:
        -   8.437461853027344
    '628':
        qtype: asymmetric_quantized
        qmethod: layer
        dtype: int8
        min:
        -   0.0
        max:
        -   0.999783456325531
        scale:
        -   0.00392071943657071
        zero_point:
        -   -128
        ori_min:
        -   0.0013568997383117676
        ori_max:
        -   0.999783456325531
    '629':
        qtype: asymmetric_quantized
        qmethod: layer
        dtype: int8
        min:
        -   -0.2784646153450012
        max:
        -   8.43563461303711
        scale:
        -   0.034172938150518084
        zero_point:
        -   -120
        ori_min:
        -   -0.2784646153450012
        ori_max:
        -   8.43563461303711
    '630':
        qtype: asymmetric_quantized
        qmethod: layer
        dtype: int8
        min:
        -   -0.2784646153450012
        max:
        -   8.43563461303711
        scale:
        -   0.034172938150518084
        zero_point:
        -   -120
        ori_min:
        -   -0.27846407890319824
        ori_max:
        -   8.43563461303711
    '631':
        qtype: asymmetric_quantized
        qmethod: layer
        dtype: int8
        min:
        -   -0.2784646153450012
        max:
        -   8.43563461303711
        scale:
        -   0.034172938150518084
        zero_point:
        -   -120
        ori_min:
        -   -0.2664065957069397
        ori_max:
        -   8.43563461303711
    '632':
        qtype: asymmetric_quantized
        qmethod: layer
        dtype: int8
        min:
        -   -0.2784646153450012
        max:
        -   8.43563461303711
        scale:
        -   0.034172938150518084
        zero_point:
        -   -120
        ori_min:
        -   -0.20160377025604248
        ori_max:
        -   8.43563461303711
    '633':
        qtype: asymmetric_quantized
        qmethod: layer
        dtype: int8
        min:
        -   -0.2784646153450012
        max:
        -   8.43563461303711
        scale:
        -   0.034172938150518084
        zero_point:
        -   -120
        ori_min:
        -   -0.2784646153450012
        ori_max:
        -   8.43563461303711
    '964':
        qtype: asymmetric_quantized
        qmethod: layer
        dtype: int8
        min:
        -   -6.3
        max:
        -   6.3
        scale:
        -   0.04941176470588235
        zero_point:
        -   0
        ori_min:
        -   -8.555915832519531
        ori_max:
        -   7.3204026222229
    '636':
        qtype: asymmetric_quantized
        qmethod: layer
        dtype: int8
        min:
        -   0.0
        max:
        -   0.9993385076522827
        scale:
        -   0.003918974539812874
        zero_point:
        -   -128
        ori_min:
        -   0.00019234418869018555
        ori_max:
        -   0.9993385076522827
    '637':
        qtype: asymmetric_quantized
        qmethod: layer
        dtype: int8
        min:
        -   -0.2784646153450012
        max:
        -   7.315560340881348
        scale:
        -   0.029780490024417055
        zero_point:
        -   -119
        ori_min:
        -   -0.2784646153450012
        ori_max:
        -   7.315560340881348
    '967':
        qtype: asymmetric_quantized
        qmethod: layer
        dtype: int8
        min:
        -   -6.3
        max:
        -   6.3
        scale:
        -   0.04941176470588235
        zero_point:
        -   0
        ori_min:
        -   -8.457856178283691
        ori_max:
        -   8.078656196594238
    '640':
        qtype: asymmetric_quantized
        qmethod: layer
        dtype: int8
        min:
        -   0.0
        max:
        -   0.999690055847168
        scale:
        -   0.003920353160184973
        zero_point:
        -   -128
        ori_min:
        -   0.00021216273307800293
        ori_max:
        -   0.999690055847168
    '641':
        qtype: asymmetric_quantized
        qmethod: layer
        dtype: int8
        min:
        -   -0.2784646153450012
        max:
        -   8.076151847839355
        scale:
        -   0.032763201816409245
        zero_point:
        -   -120
        ori_min:
        -   -0.2784646153450012
        ori_max:
        -   8.076151847839355
    '970':
        qtype: asymmetric_quantized
        qmethod: layer
        dtype: int8
        min:
        -   -6.3
        max:
        -   6.3
        scale:
        -   0.04941176470588235
        zero_point:
        -   0
        ori_min:
        -   -7.76933479309082
        ori_max:
        -   7.983266353607178
    '644':
        qtype: asymmetric_quantized
        qmethod: layer
        dtype: int8
        min:
        -   0.0
        max:
        -   0.9996589422225952
        scale:
        -   0.003920231145970962
        zero_point:
        -   -128
        ori_min:
        -   0.0004223287105560303
        ori_max:
        -   0.9996589422225952
    '645':
        qtype: asymmetric_quantized
        qmethod: layer
        dtype: int8
        min:
        -   -0.2784646153450012
        max:
        -   10.184178352355957
        scale:
        -   0.041029972422356696
        zero_point:
        -   -121
        ori_min:
        -   -0.2784646153450012
        ori_max:
        -   7.980543613433838
    '973':
        qtype: asymmetric_quantized
        qmethod: layer
        dtype: int8
        min:
        -   -6.3
        max:
        -   6.3
        scale:
        -   0.04941176470588235
        zero_point:
        -   0
        ori_min:
        -   -10.572213172912598
        ori_max:
        -   10.322460174560547
    '648':
        qtype: asymmetric_quantized
        qmethod: layer
        dtype: int8
        min:
        -   0.0
        max:
        -   0.999967098236084
        scale:
        -   0.003921439600925819
        zero_point:
        -   -128
        ori_min:
        -   2.5600194931030273e-05
        ori_max:
        -   0.999967098236084
    '649':
        qtype: asymmetric_quantized
        qmethod: layer
        dtype: int8
        min:
        -   -0.2784646153450012
        max:
        -   10.322120666503906
        scale:
        -   0.041570922673917286
        zero_point:
        -   -121
        ori_min:
        -   -0.2784646153450012
        ori_max:
        -   10.322120666503906
    '976':
        qtype: asymmetric_quantized
        qmethod: layer
        dtype: int8
        min:
        -   -6.3
        max:
        -   6.3
        scale:
        -   0.04941176470588235
        zero_point:
        -   0
        ori_min:
        -   -9.398416519165039
        ori_max:
        -   10.184563636779785
    '652':
        qtype: asymmetric_quantized
        qmethod: layer
        dtype: int8
        min:
        -   0.0
        max:
        -   0.9999622106552124
        scale:
        -   0.003921420433942009
        zero_point:
        -   -128
        ori_min:
        -   8.282065391540527e-05
        ori_max:
        -   0.9999622106552124
    '653':
        qtype: asymmetric_quantized
        qmethod: layer
        dtype: int8
        min:
        -   -0.2784646153450012
        max:
        -   10.184178352355957
        scale:
        -   0.041029972422356696
        zero_point:
        -   -121
        ori_min:
        -   -0.2784646153450012
        ori_max:
        -   10.184178352355957
    '654':
        qtype: asymmetric_quantized
        qmethod: layer
        dtype: int8
        min:
        -   -0.2784646153450012
        max:
        -   10.184178352355957
        scale:
        -   0.041029972422356696
        zero_point:
        -   -121
        ori_min:
        -   -0.2784646153450012
        ori_max:
        -   10.184178352355957
    '979':
        qtype: asymmetric_quantized
        qmethod: layer
        dtype: int8
        min:
        -   -6.3
        max:
        -   6.3
        scale:
        -   0.04941176470588235
        zero_point:
        -   0
        ori_min:
        -   -9.068368911743164
        ori_max:
        -   10.968002319335938
    '657':
        qtype: asymmetric_quantized
        qmethod: layer
        dtype: int8
        min:
        -   0.0
        max:
        -   0.9999827742576599
        scale:
        -   0.003921501075520235
        zero_point:
        -   -128
        ori_min:
        -   0.00011521577835083008
        ori_max:
        -   0.9999827742576599
    '658':
        qtype: asymmetric_quantized
        qmethod: layer
        dtype: int8
        min:
        -   -0.2784646153450012
        max:
        -   10.967813491821289
        scale:
        -   0.04410305140065212
        zero_point:
        -   -122
        ori_min:
        -   -0.2784646153450012
        ori_max:
        -   10.967813491821289
    '982':
        qtype: asymmetric_quantized
        qmethod: layer
        dtype: int8
        min:
        -   -6.3
        max:
        -   6.3
        scale:
        -   0.04941176470588235
        zero_point:
        -   0
        ori_min:
        -   -10.572749137878418
        ori_max:
        -   10.130698204040527
    '661':
        qtype: asymmetric_quantized
        qmethod: layer
        dtype: int8
        min:
        -   0.0
        max:
        -   0.99996018409729
        scale:
        -   0.003921412486656039
        zero_point:
        -   -128
        ori_min:
        -   2.562999725341797e-05
        ori_max:
        -   0.99996018409729
    '662':
        qtype: asymmetric_quantized
        qmethod: layer
        dtype: int8
        min:
        -   -0.2784646153450012
        max:
        -   10.2249116897583
        scale:
        -   0.0411897110004051
        zero_point:
        -   -121
        ori_min:
        -   -0.2784646153450012
        ori_max:
        -   10.130294799804688
    '667':
        qtype: asymmetric_quantized
        qmethod: layer
        dtype: int8
        min:
        -   -0.2784646153450012
        max:
        -   13.066766738891602
        scale:
        -   0.052334240604849425
        zero_point:
        -   -123
        ori_min:
        -   -0.2784646153450012
        ori_max:
        -   10.130294799804688
    '668':
        qtype: asymmetric_quantized
        qmethod: layer
        dtype: int8
        min:
        -   -0.2784646153450012
        max:
        -   13.066766738891602
        scale:
        -   0.052334240604849425
        zero_point:
        -   -123
        ori_min:
        -   -0.2784646153450012
        ori_max:
        -   13.066766738891602
    '985':
        qtype: asymmetric_quantized
        qmethod: layer
        dtype: int8
        min:
        -   -6.3
        max:
        -   6.3
        scale:
        -   0.04941176470588235
        zero_point:
        -   0
        ori_min:
        -   -11.75654411315918
        ori_max:
        -   7.657906532287598
    '671':
        qtype: asymmetric_quantized
        qmethod: layer
        dtype: int8
        min:
        -   0.0
        max:
        -   0.9995279312133789
        scale:
        -   0.003919717377307368
        zero_point:
        -   -128
        ori_min:
        -   7.808208465576172e-06
        ori_max:
        -   0.9995279312133789
    '672':
        qtype: asymmetric_quantized
        qmethod: layer
        dtype: int8
        min:
        -   -0.2784646153450012
        max:
        -   7.65429162979126
        scale:
        -   0.0311088480201422
        zero_point:
        -   -119
        ori_min:
        -   -0.2784646153450012
        ori_max:
        -   7.65429162979126
    '988':
        qtype: asymmetric_quantized
        qmethod: layer
        dtype: int8
        min:
        -   -6.3
        max:
        -   6.3
        scale:
        -   0.04941176470588235
        zero_point:
        -   0
        ori_min:
        -   -8.103726387023926
        ori_max:
        -   7.841707706451416
    '675':
        qtype: asymmetric_quantized
        qmethod: layer
        dtype: int8
        min:
        -   0.0
        max:
        -   0.9996071457862854
        scale:
        -   0.003920028022691316
        zero_point:
        -   -128
        ori_min:
        -   0.00030234456062316895
        ori_max:
        -   0.9996071457862854
    '676':
        qtype: asymmetric_quantized
        qmethod: layer
        dtype: int8
        min:
        -   -0.2784646153450012
        max:
        -   12.612730026245117
        scale:
        -   0.050553704476823995
        zero_point:
        -   -122
        ori_min:
        -   -0.2784646153450012
        ori_max:
        -   7.838626861572266
    '991':
        qtype: asymmetric_quantized
        qmethod: layer
        dtype: int8
        min:
        -   -6.3
        max:
        -   6.3
        scale:
        -   0.04941176470588235
        zero_point:
        -   0
        ori_min:
        -   -8.8095064163208
        ori_max:
        -   9.51033878326416
    '679':
        qtype: asymmetric_quantized
        qmethod: layer
        dtype: int8
        min:
        -   0.0
        max:
        -   0.999925971031189
        scale:
        -   0.003921278317769368
        zero_point:
        -   -128
        ori_min:
        -   0.00014930963516235352
        ori_max:
        -   0.999925971031189
    '680':
        qtype: asymmetric_quantized
        qmethod: layer
        dtype: int8
        min:
        -   -0.2784646153450012
        max:
        -   9.509634971618652
        scale:
        -   0.03838470426260256
        zero_point:
        -   -121
        ori_min:
        -   -0.2784646153450012
        ori_max:
        -   9.509634971618652
    '994':
        qtype: asymmetric_quantized
        qmethod: layer
        dtype: int8
        min:
        -   -6.3
        max:
        -   6.3
        scale:
        -   0.04941176470588235
        zero_point:
        -   0
        ori_min:
        -   -8.790166854858398
        ori_max:
        -   12.612771987915039
    '683':
        qtype: asymmetric_quantized
        qmethod: layer
        dtype: int8
        min:
        -   0.0
        max:
        -   0.9999966621398926
        scale:
        -   0.003921555537803501
        zero_point:
        -   -128
        ori_min:
        -   0.00015217065811157227
        ori_max:
        -   0.9999966621398926
    '684':
        qtype: asymmetric_quantized
        qmethod: layer
        dtype: int8
        min:
        -   -0.2784646153450012
        max:
        -   12.612730026245117
        scale:
        -   0.050553704476823995
        zero_point:
        -   -122
        ori_min:
        -   -0.2784646153450012
        ori_max:
        -   12.612730026245117
    '685':
        qtype: asymmetric_quantized
        qmethod: layer
        dtype: int8
        min:
        -   -0.2784646153450012
        max:
        -   12.612730026245117
        scale:
        -   0.050553704476823995
        zero_point:
        -   -122
        ori_min:
        -   -0.2784646153450012
        ori_max:
        -   12.612730026245117
    '997':
        qtype: asymmetric_quantized
        qmethod: layer
        dtype: int8
        min:
        -   -6.3
        max:
        -   6.3
        scale:
        -   0.04941176470588235
        zero_point:
        -   0
        ori_min:
        -   -9.749929428100586
        ori_max:
        -   10.994970321655273
    '688':
        qtype: asymmetric_quantized
        qmethod: layer
        dtype: int8
        min:
        -   0.0
        max:
        -   0.9999831914901733
        scale:
        -   0.00392150271172617
        zero_point:
        -   -128
        ori_min:
        -   5.8323144912719727e-05
        ori_max:
        -   0.9999831914901733
    '689':
        qtype: asymmetric_quantized
        qmethod: layer
        dtype: int8
        min:
        -   -0.2784646153450012
        max:
        -   10.99478530883789
        scale:
        -   0.04420882323208977
        zero_point:
        -   -122
        ori_min:
        -   -0.2784646153450012
        ori_max:
        -   10.99478530883789
    '1000':
        qtype: asymmetric_quantized
        qmethod: layer
        dtype: int8
        min:
        -   -6.3
        max:
        -   6.3
        scale:
        -   0.04941176470588235
        zero_point:
        -   0
        ori_min:
        -   -7.794491291046143
        ori_max:
        -   10.641950607299805
    '692':
        qtype: asymmetric_quantized
        qmethod: layer
        dtype: int8
        min:
        -   0.0
        max:
        -   0.9999760985374451
        scale:
        -   0.003921474896225275
        zero_point:
        -   -128
        ori_min:
        -   0.0004118382930755615
        ori_max:
        -   0.9999760985374451
    '693':
        qtype: asymmetric_quantized
        qmethod: layer
        dtype: int8
        min:
        -   -0.2784646153450012
        max:
        -   10.641695976257324
        scale:
        -   0.042824159182754215
        zero_point:
        -   -121
        ori_min:
        -   -0.2784646153450012
        ori_max:
        -   10.641695976257324
    '698':
        qtype: asymmetric_quantized
        qmethod: layer
        dtype: int8
        min:
        -   -0.2784646153450012
        max:
        -   12.038435935974121
        scale:
        -   0.048301570789486756
        zero_point:
        -   -122
        ori_min:
        -   -0.2784646153450012
        ori_max:
        -   10.641695976257324
    '699':
        qtype: asymmetric_quantized
        qmethod: layer
        dtype: int8
        min:
        -   -0.2784646153450012
        max:
        -   12.038435935974121
        scale:
        -   0.048301570789486756
        zero_point:
        -   -122
        ori_min:
        -   -0.2784646153450012
        ori_max:
        -   12.038435935974121
    '1003':
        qtype: asymmetric_quantized
        qmethod: layer
        dtype: int8
        min:
        -   -6.3
        max:
        -   5.2274394035339355
        scale:
        -   0.04520564471974093
        zero_point:
        -   11
        ori_min:
        -   -9.425969123840332
        ori_max:
        -   5.2274394035339355
    '702':
        qtype: asymmetric_quantized
        qmethod: layer
        dtype: int8
        min:
        -   0.0
        max:
        -   0.9946613907814026
        scale:
        -   0.003900632905025108
        zero_point:
        -   -128
        ori_min:
        -   8.058547973632812e-05
        ori_max:
        -   0.9946613907814026
    '703':
        qtype: asymmetric_quantized
        qmethod: layer
        dtype: int8
        min:
        -   -0.2784646153450012
        max:
        -   5.1995320320129395
        scale:
        -   0.02148233979356055
        zero_point:
        -   -115
        ori_min:
        -   -0.2784646153450012
        ori_max:
        -   5.1995320320129395
    '1006':
        qtype: asymmetric_quantized
        qmethod: layer
        dtype: int8
        min:
        -   -6.3
        max:
        -   6.3
        scale:
        -   0.04941176470588235
        zero_point:
        -   0
        ori_min:
        -   -9.49646282196045
        ori_max:
        -   6.972910404205322
    '706':
        qtype: asymmetric_quantized
        qmethod: layer
        dtype: int8
        min:
        -   0.0
        max:
        -   0.9990639686584473
        scale:
        -   0.003917897916307637
        zero_point:
        -   -128
        ori_min:
        -   7.516145706176758e-05
        ori_max:
        -   0.9990639686584473
    '707':
        qtype: asymmetric_quantized
        qmethod: layer
        dtype: int8
        min:
        -   -0.2784646153450012
        max:
        -   6.9963788986206055
        scale:
        -   0.02852879809398277
        zero_point:
        -   -118
        ori_min:
        -   -0.2784646153450012
        ori_max:
        -   6.966383457183838
    '1009':
        qtype: asymmetric_quantized
        qmethod: layer
        dtype: int8
        min:
        -   -6.3
        max:
        -   6.3
        scale:
        -   0.04941176470588235
        zero_point:
        -   0
        ori_min:
        -   -7.910204887390137
        ori_max:
        -   6.7076616287231445
    '710':
        qtype: asymmetric_quantized
        qmethod: layer
        dtype: int8
        min:
        -   0.0
        max:
        -   0.9987800121307373
        scale:
        -   0.003916784361297009
        zero_point:
        -   -128
        ori_min:
        -   0.000366896390914917
        ori_max:
        -   0.9987800121307373
    '711':
        qtype: asymmetric_quantized
        qmethod: layer
        dtype: int8
        min:
        -   -0.2784646153450012
        max:
        -   6.6994781494140625
        scale:
        -   0.0273644814304277
        zero_point:
        -   -118
        ori_min:
        -   -0.2784646153450012
        ori_max:
        -   6.6994781494140625
    '1012':
        qtype: asymmetric_quantized
        qmethod: layer
        dtype: int8
        min:
        -   -6.3
        max:
        -   6.3
        scale:
        -   0.04941176470588235
        zero_point:
        -   0
        ori_min:
        -   -7.40604305267334
        ori_max:
        -   7.002740859985352
    '714':
        qtype: asymmetric_quantized
        qmethod: layer
        dtype: int8
        min:
        -   0.0
        max:
        -   0.9990915060043335
        scale:
        -   0.003918005905899347
        zero_point:
        -   -128
        ori_min:
        -   0.000607222318649292
        ori_max:
        -   0.9990915060043335
    '715':
        qtype: asymmetric_quantized
        qmethod: layer
        dtype: int8
        min:
        -   -0.2784646153450012
        max:
        -   6.9963788986206055
        scale:
        -   0.02852879809398277
        zero_point:
        -   -118
        ori_min:
        -   -0.2784646153450012
        ori_max:
        -   6.9963788986206055
    '716':
        qtype: asymmetric_quantized
        qmethod: layer
        dtype: int8
        min:
        -   -0.2784646153450012
        max:
        -   6.9963788986206055
        scale:
        -   0.02852879809398277
        zero_point:
        -   -118
        ori_min:
        -   -0.2784646153450012
        ori_max:
        -   6.9963788986206055
    '1015':
        qtype: asymmetric_quantized
        qmethod: layer
        dtype: int8
        min:
        -   -6.3
        max:
        -   6.3
        scale:
        -   0.04941176470588235
        zero_point:
        -   0
        ori_min:
        -   -8.138877868652344
        ori_max:
        -   12.428262710571289
    '719':
        qtype: asymmetric_quantized
        qmethod: layer
        dtype: int8
        min:
        -   0.0
        max:
        -   0.9999959468841553
        scale:
        -   0.0039215527328790405
        zero_point:
        -   -128
        ori_min:
        -   0.0002918839454650879
        ori_max:
        -   0.9999959468841553
    '720':
        qtype: asymmetric_quantized
        qmethod: layer
        dtype: int8
        min:
        -   -0.2784646153450012
        max:
        -   12.42821216583252
        scale:
        -   0.04983010502422557
        zero_point:
        -   -122
        ori_min:
        -   -0.2784646153450012
        ori_max:
        -   12.42821216583252
    '1018':
        qtype: asymmetric_quantized
        qmethod: layer
        dtype: int8
        min:
        -   -6.3
        max:
        -   6.3
        scale:
        -   0.04941176470588235
        zero_point:
        -   0
        ori_min:
        -   -8.33034896850586
        ori_max:
        -   8.462510108947754
    '723':
        qtype: asymmetric_quantized
        qmethod: layer
        dtype: int8
        min:
        -   0.0
        max:
        -   0.9997888207435608
        scale:
        -   0.00392074047350416
        zero_point:
        -   -128
        ori_min:
        -   0.000241011381149292
        ori_max:
        -   0.9997888207435608
    '724':
        qtype: asymmetric_quantized
        qmethod: layer
        dtype: int8
        min:
        -   -0.2784646153450012
        max:
        -   10.641695976257324
        scale:
        -   0.042824159182754215
        zero_point:
        -   -121
        ori_min:
        -   -0.2784646153450012
        ori_max:
        -   8.460722923278809
    '725':
        qtype: asymmetric_quantized
        qmethod: layer
        dtype: int8
        min:
        -   -0.2784646153450012
        max:
        -   10.641695976257324
        scale:
        -   0.042824159182754215
        zero_point:
        -   -121
        ori_min:
        -   -0.2784646153450012
        ori_max:
        -   10.641695976257324
    '1021':
        qtype: asymmetric_quantized
        qmethod: layer
        dtype: int8
        min:
        -   -6.3
        max:
        -   6.3
        scale:
        -   0.04941176470588235
        zero_point:
        -   0
        ori_min:
        -   -8.755494117736816
        ori_max:
        -   10.260184288024902
    '728':
        qtype: asymmetric_quantized
        qmethod: layer
        dtype: int8
        min:
        -   0.0
        max:
        -   0.9999649524688721
        scale:
        -   0.003921431186152439
        zero_point:
        -   -128
        ori_min:
        -   0.0001575946807861328
        ori_max:
        -   0.9999649524688721
    '729':
        qtype: asymmetric_quantized
        qmethod: layer
        dtype: int8
        min:
        -   -0.2784646153450012
        max:
        -   10.259824752807617
        scale:
        -   0.04132662497314752
        zero_point:
        -   -121
        ori_min:
        -   -0.2784646153450012
        ori_max:
        -   10.259824752807617
    '1024':
        qtype: asymmetric_quantized
        qmethod: layer
        dtype: int8
        min:
        -   -6.3
        max:
        -   6.3
        scale:
        -   0.04941176470588235
        zero_point:
        -   0
        ori_min:
        -   -8.864678382873535
        ori_max:
        -   10.86719799041748
    '732':
        qtype: asymmetric_quantized
        qmethod: layer
        dtype: int8
        min:
        -   0.0
        max:
        -   0.9999809265136719
        scale:
        -   0.00392149382946538
        zero_point:
        -   -128
        ori_min:
        -   0.00014123320579528809
        ori_max:
        -   0.9999809265136719
    '733':
        qtype: asymmetric_quantized
        qmethod: layer
        dtype: int8
        min:
        -   -0.2784646153450012
        max:
        -   16.116451263427734
        scale:
        -   0.06429378775989308
        zero_point:
        -   -124
        ori_min:
        -   -0.2784646153450012
        ori_max:
        -   10.86699104309082
    '1027':
        qtype: asymmetric_quantized
        qmethod: layer
        dtype: int8
        min:
        -   -6.3
        max:
        -   6.3
        scale:
        -   0.04941176470588235
        zero_point:
        -   0
        ori_min:
        -   -8.288765907287598
        ori_max:
        -   13.567556381225586
    '736':
        qtype: asymmetric_quantized
        qmethod: layer
        dtype: int8
        min:
        -   0.0
        max:
        -   0.9999986886978149
        scale:
        -   0.003921563485089471
        zero_point:
        -   -128
        ori_min:
        -   0.0002512931823730469
        ori_max:
        -   0.9999986886978149
    '737':
        qtype: asymmetric_quantized
        qmethod: layer
        dtype: int8
        min:
        -   -0.2784646153450012
        max:
        -   13.567538261413574
        scale:
        -   0.05429805049709245
        zero_point:
        -   -123
        ori_min:
        -   -0.2784646153450012
        ori_max:
        -   13.567538261413574
    '1030':
        qtype: asymmetric_quantized
        qmethod: layer
        dtype: int8
        min:
        -   -6.3
        max:
        -   6.3
        scale:
        -   0.04941176470588235
        zero_point:
        -   0
        ori_min:
        -   -12.73161792755127
        ori_max:
        -   16.116451263427734
    '740':
        qtype: asymmetric_quantized
        qmethod: layer
        dtype: int8
        min:
        -   0.0
        max:
        -   1.0
        scale:
        -   0.00392156862745098
        zero_point:
        -   -128
        ori_min:
        -   2.9206275939941406e-06
        ori_max:
        -   1.0
    '741':
        qtype: asymmetric_quantized
        qmethod: layer
        dtype: int8
        min:
        -   -0.2784646153450012
        max:
        -   16.116451263427734
        scale:
        -   0.06429378775989308
        zero_point:
        -   -124
        ori_min:
        -   -0.2784646153450012
        ori_max:
        -   16.116451263427734
    '742':
        qtype: asymmetric_quantized
        qmethod: layer
        dtype: int8
        min:
        -   -0.2784646153450012
        max:
        -   16.116451263427734
        scale:
        -   0.06429378775989308
        zero_point:
        -   -124
        ori_min:
        -   -0.2784646153450012
        ori_max:
        -   16.116451263427734
    '1033':
        qtype: asymmetric_quantized
        qmethod: layer
        dtype: int8
        min:
        -   -6.3
        max:
        -   6.3
        scale:
        -   0.04941176470588235
        zero_point:
        -   0
        ori_min:
        -   -25.761751174926758
        ori_max:
        -   12.275371551513672
    '745':
        qtype: asymmetric_quantized
        qmethod: layer
        dtype: int8
        min:
        -   0.0
        max:
        -   0.9999952912330627
        scale:
        -   0.003921550161698285
        zero_point:
        -   -128
        ori_min:
        -   0.0
        ori_max:
        -   0.9999952912330627
    '746':
        qtype: asymmetric_quantized
        qmethod: layer
        dtype: int8
        min:
        -   -0.2784646153450012
        max:
        -   12.275313377380371
        scale:
        -   0.049230501932256365
        zero_point:
        -   -122
        ori_min:
        -   -0.2784646153450012
        ori_max:
        -   12.275313377380371
    '1036':
        qtype: asymmetric_quantized
        qmethod: layer
        dtype: int8
        min:
        -   -6.3
        max:
        -   6.3
        scale:
        -   0.04941176470588235
        zero_point:
        -   0
        ori_min:
        -   -9.452006340026855
        ori_max:
        -   10.225282669067383
    '749':
        qtype: asymmetric_quantized
        qmethod: layer
        dtype: int8
        min:
        -   0.0
        max:
        -   0.9999637603759766
        scale:
        -   0.0039214265112783395
        zero_point:
        -   -128
        ori_min:
        -   7.846951484680176e-05
        ori_max:
        -   0.9999637603759766
    '750':
        qtype: asymmetric_quantized
        qmethod: layer
        dtype: int8
        min:
        -   -0.2784646153450012
        max:
        -   10.2249116897583
        scale:
        -   0.0411897110004051
        zero_point:
        -   -121
        ori_min:
        -   -0.2784646153450012
        ori_max:
        -   10.2249116897583
    '751':
        qtype: asymmetric_quantized
        qmethod: layer
        dtype: int8
        min:
        -   -0.2784646153450012
        max:
        -   10.2249116897583
        scale:
        -   0.0411897110004051
        zero_point:
        -   -121
        ori_min:
        -   -0.2784646153450012
        ori_max:
        -   10.2249116897583
    '1039':
        qtype: asymmetric_quantized
        qmethod: layer
        dtype: int8
        min:
        -   -6.3
        max:
        -   6.3
        scale:
        -   0.04941176470588235
        zero_point:
        -   0
        ori_min:
        -   -10.688393592834473
        ori_max:
        -   11.078949928283691
    '754':
        qtype: asymmetric_quantized
        qmethod: layer
        dtype: int8
        min:
        -   0.0
        max:
        -   0.9999845027923584
        scale:
        -   0.00392150785408768
        zero_point:
        -   -128
        ori_min:
        -   2.2798776626586914e-05
        ori_max:
        -   0.9999845027923584
    '755':
        qtype: asymmetric_quantized
        qmethod: layer
        dtype: int8
        min:
        -   -0.2784646153450012
        max:
        -   11.078778266906738
        scale:
        -   0.04453820738137937
        zero_point:
        -   -122
        ori_min:
        -   -0.2784646153450012
        ori_max:
        -   11.078778266906738
    '1042':
        qtype: asymmetric_quantized
        qmethod: layer
        dtype: int8
        min:
        -   -6.3
        max:
        -   6.3
        scale:
        -   0.04941176470588235
        zero_point:
        -   0
        ori_min:
        -   -11.168075561523438
        ori_max:
        -   8.096537590026855
    '758':
        qtype: asymmetric_quantized
        qmethod: layer
        dtype: int8
        min:
        -   0.0
        max:
        -   0.9996955394744873
        scale:
        -   0.003920374664605833
        zero_point:
        -   -128
        ori_min:
        -   1.4126300811767578e-05
        ori_max:
        -   0.9996955394744873
    '759':
        qtype: asymmetric_quantized
        qmethod: layer
        dtype: int8
        min:
        -   -0.2784646153450012
        max:
        -   13.515995979309082
        scale:
        -   0.05409592390060425
        zero_point:
        -   -123
        ori_min:
        -   -0.2784646153450012
        ori_max:
        -   8.094072341918945
    '1045':
        qtype: asymmetric_quantized
        qmethod: layer
        dtype: int8
        min:
        -   -6.3
        max:
        -   6.3
        scale:
        -   0.04941176470588235
        zero_point:
        -   0
        ori_min:
        -   -10.525794982910156
        ori_max:
        -   10.055829048156738
    '762':
        qtype: asymmetric_quantized
        qmethod: layer
        dtype: int8
        min:
        -   0.0
        max:
        -   0.9999570846557617
        scale:
        -   0.003921400331983379
        zero_point:
        -   -128
        ori_min:
        -   2.6851892471313477e-05
        ori_max:
        -   0.9999570846557617
    '763':
        qtype: asymmetric_quantized
        qmethod: layer
        dtype: int8
        min:
        -   -0.2784646153450012
        max:
        -   10.055397033691406
        scale:
        -   0.04052494764328003
        zero_point:
        -   -121
        ori_min:
        -   -0.2784646153450012
        ori_max:
        -   10.055397033691406
    '1048':
        qtype: asymmetric_quantized
        qmethod: layer
        dtype: int8
        min:
        -   -6.3
        max:
        -   6.3
        scale:
        -   0.04941176470588235
        zero_point:
        -   0
        ori_min:
        -   -10.726689338684082
        ori_max:
        -   13.516014099121094
    '766':
        qtype: asymmetric_quantized
        qmethod: layer
        dtype: int8
        min:
        -   0.0
        max:
        -   0.9999986886978149
        scale:
        -   0.003921563485089471
        zero_point:
        -   -128
        ori_min:
        -   2.193450927734375e-05
        ori_max:
        -   0.9999986886978149
    '767':
        qtype: asymmetric_quantized
        qmethod: layer
        dtype: int8
        min:
        -   -0.2784646153450012
        max:
        -   13.515995979309082
        scale:
        -   0.05409592390060425
        zero_point:
        -   -123
        ori_min:
        -   -0.2784646153450012
        ori_max:
        -   13.515995979309082
    '768':
        qtype: asymmetric_quantized
        qmethod: layer
        dtype: int8
        min:
        -   -0.2784646153450012
        max:
        -   13.515995979309082
        scale:
        -   0.05409592390060425
        zero_point:
        -   -123
        ori_min:
        -   -0.2784646153450012
        ori_max:
        -   13.515995979309082
    '1051':
        qtype: asymmetric_quantized
        qmethod: layer
        dtype: int8
        min:
        -   -6.3
        max:
        -   6.3
        scale:
        -   0.04941176470588235
        zero_point:
        -   0
        ori_min:
        -   -12.550609588623047
        ori_max:
        -   11.555085182189941
    '771':
        qtype: asymmetric_quantized
        qmethod: layer
        dtype: int8
        min:
        -   0.0
        max:
        -   0.9999904632568359
        scale:
        -   0.00392153122845818
        zero_point:
        -   -128
        ori_min:
        -   3.4868717193603516e-06
        ori_max:
        -   0.9999904632568359
    '772':
        qtype: asymmetric_quantized
        qmethod: layer
        dtype: int8
        min:
        -   -0.2784646153450012
        max:
        -   11.554974555969238
        scale:
        -   0.04640564380907545
        zero_point:
        -   -122
        ori_min:
        -   -0.2784646153450012
        ori_max:
        -   11.554974555969238
    '1054':
        qtype: asymmetric_quantized
        qmethod: layer
        dtype: int8
        min:
        -   -6.3
        max:
        -   6.3
        scale:
        -   0.04941176470588235
        zero_point:
        -   0
        ori_min:
        -   -13.130867004394531
        ori_max:
        -   10.835226058959961
    '775':
        qtype: asymmetric_quantized
        qmethod: layer
        dtype: int8
        min:
        -   0.0
        max:
        -   0.9999803304672241
        scale:
        -   0.00392149149202833
        zero_point:
        -   -128
        ori_min:
        -   1.996755599975586e-06
        ori_max:
        -   0.9999803304672241
    '776':
        qtype: asymmetric_quantized
        qmethod: layer
        dtype: int8
        min:
        -   -0.2784646153450012
        max:
        -   10.835013389587402
        scale:
        -   0.043582266686009424
        zero_point:
        -   -122
        ori_min:
        -   -0.2784646153450012
        ori_max:
        -   10.835013389587402
    '1057':
        qtype: asymmetric_quantized
        qmethod: layer
        dtype: int8
        min:
        -   -6.3
        max:
        -   6.3
        scale:
        -   0.04941176470588235
        zero_point:
        -   0
        ori_min:
        -   -12.771478652954102
        ori_max:
        -   11.955714225769043
    '779':
        qtype: asymmetric_quantized
        qmethod: layer
        dtype: int8
        min:
        -   0.0
        max:
        -   0.9999935626983643
        scale:
        -   0.00392154338313084
        zero_point:
        -   -128
        ori_min:
        -   2.8908252716064453e-06
        ori_max:
        -   0.9999935626983643
    '780':
        qtype: asymmetric_quantized
        qmethod: layer
        dtype: int8
        min:
        -   -0.2784646153450012
        max:
        -   11.955636978149414
        scale:
        -   0.04797686899409575
        zero_point:
        -   -122
        ori_min:
        -   -0.2784646153450012
        ori_max:
        -   11.955636978149414
    '1060':
        qtype: asymmetric_quantized
        qmethod: layer
        dtype: int8
        min:
        -   -6.3
        max:
        -   6.3
        scale:
        -   0.04941176470588235
        zero_point:
        -   0
        ori_min:
        -   -21.19954490661621
        ori_max:
        -   25.997655868530273
    '783':
        qtype: asymmetric_quantized
        qmethod: layer
        dtype: int8
        min:
        -   0.0
        max:
        -   1.0
        scale:
        -   0.00392156862745098
        zero_point:
        -   -128
        ori_min:
        -   0.0
        ori_max:
        -   1.0
    '784':
        qtype: asymmetric_quantized
        qmethod: layer
        dtype: int8
        min:
        -   -0.2784646153450012
        max:
        -   25.997655868530273
        scale:
        -   0.10304360974068735
        zero_point:
        -   -125
        ori_min:
        -   -0.2784646153450012
        ori_max:
        -   25.997655868530273
    '785':
        qtype: asymmetric_quantized
        qmethod: layer
        dtype: int8
        min:
        -   -6.3
        max:
        -   2.1130456924438477
        scale:
        -   0.032992336048799406
        zero_point:
        -   63
        ori_min:
        -   -17.385631561279297
        ori_max:
        -   2.1130456924438477
    '1063':
        qtype: asymmetric_quantized
        qmethod: layer
        dtype: int8
        min:
        -   -6.3
        max:
        -   6.3
        scale:
        -   0.04941176470588235
        zero_point:
        -   0
        ori_min:
        -   -21.060977935791016
        ori_max:
        -   18.185386657714844
    '788':
        qtype: asymmetric_quantized
        qmethod: layer
        dtype: int8
        min:
        -   0.0
        max:
        -   1.0
        scale:
        -   0.00392156862745098
        zero_point:
        -   -128
        ori_min:
        -   0.0
        ori_max:
        -   1.0
    '789':
        qtype: asymmetric_quantized
        qmethod: layer
        dtype: int8
        min:
        -   -0.2784646153450012
        max:
        -   18.185386657714844
        scale:
        -   0.07240725989435233
        zero_point:
        -   -124
        ori_min:
        -   -0.2784646153450012
        ori_max:
        -   18.185386657714844
    '1066':
        qtype: asymmetric_quantized
        qmethod: layer
        dtype: int8
        min:
        -   -6.3
        max:
        -   6.3
        scale:
        -   0.04941176470588235
        zero_point:
        -   0
        ori_min:
        -   -24.7529239654541
        ori_max:
        -   16.743330001831055
    '792':
        qtype: asymmetric_quantized
        qmethod: layer
        dtype: int8
        min:
        -   0.0
        max:
        -   1.0
        scale:
        -   0.00392156862745098
        zero_point:
        -   -128
        ori_min:
        -   0.0
        ori_max:
        -   1.0
    '793':
        qtype: asymmetric_quantized
        qmethod: layer
        dtype: int8
        min:
        -   -0.2784646153450012
        max:
        -   16.743330001831055
        scale:
        -   0.06675213575363159
        zero_point:
        -   -124
        ori_min:
        -   -0.2784646153450012
        ori_max:
        -   16.743330001831055
    '794':
        qtype: asymmetric_quantized
        qmethod: layer
        dtype: int8
        min:
        -   -2.412457227706909
        max:
        -   3.7667644023895264
        scale:
        -   0.024232241686652688
        zero_point:
        -   -28
        ori_min:
        -   -2.037677764892578
        ori_max:
        -   3.6821393966674805
    '795':
        qtype: asymmetric_quantized
        qmethod: layer
        dtype: int8
        min:
        -   -6.3
        max:
        -   0.0
        scale:
        -   0.024705882352941175
        zero_point:
        -   127
        ori_min:
        -   -27.972301483154297
        ori_max:
        -   -0.37140369415283203
    '796':
        qtype: asymmetric_quantized
        qmethod: layer
        dtype: int8
        min:
        -   -2.412457227706909
        max:
        -   3.7667644023895264
        scale:
        -   0.024232241686652688
        zero_point:
        -   -28
        ori_min:
        -   0.0
        ori_max:
        -   0.4082019031047821
    '797':
        qtype: asymmetric_quantized
        qmethod: layer
        dtype: int8
        min:
        -   -2.412457227706909
        max:
        -   3.7667644023895264
        scale:
        -   0.024232241686652688
        zero_point:
        -   -28
        ori_min:
        -   0.0
        ori_max:
        -   0.8921647071838379
    '798':
        qtype: asymmetric_quantized
        qmethod: layer
        dtype: int8
        min:
        -   -2.412457227706909
        max:
        -   3.7667644023895264
        scale:
        -   0.024232241686652688
        zero_point:
        -   -28
        ori_min:
        -   -2.037677764892578
        ori_max:
        -   3.6821393966674805
    '1069':
        qtype: asymmetric_quantized
        qmethod: layer
        dtype: int8
        min:
        -   -6.3
        max:
        -   6.3
        scale:
        -   0.04941176470588235
        zero_point:
        -   0
        ori_min:
        -   -25.167755126953125
        ori_max:
        -   14.715608596801758
    '801':
        qtype: asymmetric_quantized
        qmethod: layer
        dtype: int8
        min:
        -   0.0
        max:
        -   0.9999995231628418
        scale:
        -   0.003921566757501341
        zero_point:
        -   -128
        ori_min:
        -   0.0
        ori_max:
        -   0.9999995231628418
    '802':
        qtype: asymmetric_quantized
        qmethod: layer
        dtype: int8
        min:
        -   -0.2784646153450012
        max:
        -   14.715601921081543
        scale:
        -   0.058800260927162916
        zero_point:
        -   -123
        ori_min:
        -   -0.2784646153450012
        ori_max:
        -   14.715601921081543
    '1072':
        qtype: asymmetric_quantized
        qmethod: layer
        dtype: int8
        min:
        -   -6.3
        max:
        -   6.3
        scale:
        -   0.04941176470588235
        zero_point:
        -   0
        ori_min:
        -   -15.231754302978516
        ori_max:
        -   13.18900203704834
    '805':
        qtype: asymmetric_quantized
        qmethod: layer
        dtype: int8
        min:
        -   0.0
        max:
        -   0.9999980926513672
        scale:
        -   0.00392156114765242
        zero_point:
        -   -128
        ori_min:
        -   2.980232238769531e-07
        ori_max:
        -   0.9999980926513672
    '806':
        qtype: asymmetric_quantized
        qmethod: layer
        dtype: int8
        min:
        -   -0.2784646153450012
        max:
        -   13.188977241516113
        scale:
        -   0.052813497477886724
        zero_point:
        -   -123
        ori_min:
        -   -0.2784646153450012
        ori_max:
        -   13.188977241516113
    '1075':
        qtype: asymmetric_quantized
        qmethod: layer
        dtype: int8
        min:
        -   -6.3
        max:
        -   6.3
        scale:
        -   0.04941176470588235
        zero_point:
        -   0
        ori_min:
        -   -27.58849334716797
        ori_max:
        -   27.389345169067383
    '809':
        qtype: asymmetric_quantized
        qmethod: layer
        dtype: int8
        min:
        -   0.0
        max:
        -   1.0
        scale:
        -   0.00392156862745098
        zero_point:
        -   -128
        ori_min:
        -   0.0
        ori_max:
        -   1.0
    '810':
        qtype: asymmetric_quantized
        qmethod: layer
        dtype: int8
        min:
        -   -0.2784646153450012
        max:
        -   27.389345169067383
        scale:
        -   0.10850121484083287
        zero_point:
        -   -125
        ori_min:
        -   -0.2784646153450012
        ori_max:
        -   27.389345169067383
    '811':
        qtype: asymmetric_quantized
        qmethod: layer
        dtype: int8
        min:
        -   -6.3
        max:
        -   2.762542724609375
        scale:
        -   0.03553938323376226
        zero_point:
        -   49
        ori_min:
        -   -24.380495071411133
        ori_max:
        -   2.762542724609375
    '1078':
        qtype: asymmetric_quantized
        qmethod: layer
        dtype: int8
        min:
        -   -6.3
        max:
        -   6.3
        scale:
        -   0.04941176470588235
        zero_point:
        -   0
        ori_min:
        -   -19.698564529418945
        ori_max:
        -   13.24744701385498
    '814':
        qtype: asymmetric_quantized
        qmethod: layer
        dtype: int8
        min:
        -   0.0
        max:
        -   0.9999982118606567
        scale:
        -   0.00392156161513983
        zero_point:
        -   -128
        ori_min:
        -   0.0
        ori_max:
        -   0.9999982118606567
    '815':
        qtype: asymmetric_quantized
        qmethod: layer
        dtype: int8
        min:
        -   -0.2784646153450012
        max:
        -   13.24742317199707
        scale:
        -   0.05304269720526303
        zero_point:
        -   -123
        ori_min:
        -   -0.2784646153450012
        ori_max:
        -   13.24742317199707
    '1081':
        qtype: asymmetric_quantized
        qmethod: layer
        dtype: int8
        min:
        -   -6.3
        max:
        -   6.3
        scale:
        -   0.04941176470588235
        zero_point:
        -   0
        ori_min:
        -   -34.52935028076172
        ori_max:
        -   24.74576759338379
    '818':
        qtype: asymmetric_quantized
        qmethod: layer
        dtype: int8
        min:
        -   0.0
        max:
        -   1.0
        scale:
        -   0.00392156862745098
        zero_point:
        -   -128
        ori_min:
        -   0.0
        ori_max:
        -   1.0
    '819':
        qtype: asymmetric_quantized
        qmethod: layer
        dtype: int8
        min:
        -   -0.2784646153450012
        max:
        -   24.74576759338379
        scale:
        -   0.09813424395579917
        zero_point:
        -   -125
        ori_min:
        -   -0.2784646153450012
        ori_max:
        -   24.74576759338379
    '820':
        qtype: asymmetric_quantized
        qmethod: layer
        dtype: int8
        min:
        -   -2.412457227706909
        max:
        -   3.7667644023895264
        scale:
        -   0.024232241686652688
        zero_point:
        -   -28
        ori_min:
        -   -2.1753432750701904
        ori_max:
        -   3.7667644023895264
    '821':
        qtype: asymmetric_quantized
        qmethod: layer
        dtype: int8
        min:
        -   -6.3
        max:
        -   6.3
        scale:
        -   0.04941176470588235
        zero_point:
        -   0
        ori_min:
        -   -35.110374450683594
        ori_max:
        -   6.700263977050781
    '822':
        qtype: asymmetric_quantized
        qmethod: layer
        dtype: int8
        min:
        -   -2.412457227706909
        max:
        -   3.7667644023895264
        scale:
        -   0.024232241686652688
        zero_point:
        -   -28
        ori_min:
        -   0.0
        ori_max:
        -   0.9987708330154419
    '823':
        qtype: asymmetric_quantized
        qmethod: layer
        dtype: int8
        min:
        -   -2.412457227706909
        max:
        -   3.7667644023895264
        scale:
        -   0.024232241686652688
        zero_point:
        -   -28
        ori_min:
        -   0.0
        ori_max:
        -   0.9406177997589111
    '824':
        qtype: asymmetric_quantized
        qmethod: layer
        dtype: int8
        min:
        -   -2.412457227706909
        max:
        -   3.7667644023895264
        scale:
        -   0.024232241686652688
        zero_point:
        -   -28
        ori_min:
        -   -2.1753432750701904
        ori_max:
        -   3.7667644023895264
    '1084':
        qtype: asymmetric_quantized
        qmethod: layer
        dtype: int8
        min:
        -   -6.3
        max:
        -   6.3
        scale:
        -   0.04941176470588235
        zero_point:
        -   0
        ori_min:
        -   -17.62220001220703
        ori_max:
        -   11.478102684020996
    '827':
        qtype: asymmetric_quantized
        qmethod: layer
        dtype: int8
        min:
        -   0.0
        max:
        -   0.9999896287918091
        scale:
        -   0.00392152795604631
        zero_point:
        -   -128
        ori_min:
        -   0.0
        ori_max:
        -   0.9999896287918091
    '828':
        qtype: asymmetric_quantized
        qmethod: layer
        dtype: int8
        min:
        -   -0.2784646153450012
        max:
        -   11.477983474731445
        scale:
        -   0.04610371800029979
        zero_point:
        -   -122
        ori_min:
        -   -0.2784646153450012
        ori_max:
        -   11.477983474731445
    '1087':
        qtype: asymmetric_quantized
        qmethod: layer
        dtype: int8
        min:
        -   -6.3
        max:
        -   6.3
        scale:
        -   0.04941176470588235
        zero_point:
        -   0
        ori_min:
        -   -9.703780174255371
        ori_max:
        -   9.008140563964844
    '831':
        qtype: asymmetric_quantized
        qmethod: layer
        dtype: int8
        min:
        -   0.0
        max:
        -   0.9998775720596313
        scale:
        -   0.003921088517880907
        zero_point:
        -   -128
        ori_min:
        -   6.112456321716309e-05
        ori_max:
        -   0.9998775720596313
    '832':
        qtype: asymmetric_quantized
        qmethod: layer
        dtype: int8
        min:
        -   -0.2784646153450012
        max:
        -   9.007038116455078
        scale:
        -   0.036413736203137564
        zero_point:
        -   -120
        ori_min:
        -   -0.2784646153450012
        ori_max:
        -   9.007038116455078
    '1090':
        qtype: asymmetric_quantized
        qmethod: layer
        dtype: int8
        min:
        -   -6.3
        max:
        -   6.3
        scale:
        -   0.04941176470588235
        zero_point:
        -   0
        ori_min:
        -   -17.180526733398438
        ori_max:
        -   18.41740608215332
    '835':
        qtype: asymmetric_quantized
        qmethod: layer
        dtype: int8
        min:
        -   0.0
        max:
        -   1.0
        scale:
        -   0.00392156862745098
        zero_point:
        -   -128
        ori_min:
        -   2.9802322387695312e-08
        ori_max:
        -   1.0
    '836':
        qtype: asymmetric_quantized
        qmethod: layer
        dtype: int8
        min:
        -   -0.2784646153450012
        max:
        -   18.41740608215332
        scale:
        -   0.07331713999018949
        zero_point:
        -   -124
        ori_min:
        -   -0.2784646153450012
        ori_max:
        -   18.41740608215332
    '837':
        qtype: asymmetric_quantized
        qmethod: layer
        dtype: int8
        min:
        -   -6.3
        max:
        -   3.3259053230285645
        scale:
        -   0.037748648325602215
        zero_point:
        -   39
        ori_min:
        -   -25.417648315429688
        ori_max:
        -   3.3259053230285645
    '1093':
        qtype: asymmetric_quantized
        qmethod: layer
        dtype: int8
        min:
        -   -6.3
        max:
        -   6.3
        scale:
        -   0.04941176470588235
        zero_point:
        -   0
        ori_min:
        -   -13.716509819030762
        ori_max:
        -   9.500921249389648
    '840':
        qtype: asymmetric_quantized
        qmethod: layer
        dtype: int8
        min:
        -   0.0
        max:
        -   0.9999252557754517
        scale:
        -   0.003921275512844908
        zero_point:
        -   -128
        ori_min:
        -   1.043081283569336e-06
        ori_max:
        -   0.9999252557754517
    '841':
        qtype: asymmetric_quantized
        qmethod: layer
        dtype: int8
        min:
        -   -0.2784646153450012
        max:
        -   9.500210762023926
        scale:
        -   0.03834774657791736
        zero_point:
        -   -121
        ori_min:
        -   -0.2784646153450012
        ori_max:
        -   9.500210762023926
    '1096':
        qtype: asymmetric_quantized
        qmethod: layer
        dtype: int8
        min:
        -   -6.3
        max:
        -   6.3
        scale:
        -   0.04941176470588235
        zero_point:
        -   0
        ori_min:
        -   -19.988447189331055
        ori_max:
        -   11.504631996154785
    '844':
        qtype: asymmetric_quantized
        qmethod: layer
        dtype: int8
        min:
        -   0.0
        max:
        -   0.999989926815033
        scale:
        -   0.003921529124764835
        zero_point:
        -   -128
        ori_min:
        -   0.0
        ori_max:
        -   0.999989926815033
    '845':
        qtype: asymmetric_quantized
        qmethod: layer
        dtype: int8
        min:
        -   -0.2784646153450012
        max:
        -   11.504515647888184
        scale:
        -   0.04620776573816935
        zero_point:
        -   -122
        ori_min:
        -   -0.2784646153450012
        ori_max:
        -   11.504515647888184
    '846':
        qtype: asymmetric_quantized
        qmethod: layer
        dtype: int8
        min:
        -   -2.412457227706909
        max:
        -   3.7667644023895264
        scale:
        -   0.024232241686652688
        zero_point:
        -   -28
        ori_min:
        -   -2.412457227706909
        ori_max:
        -   3.6167492866516113
    '847':
        qtype: asymmetric_quantized
        qmethod: layer
        dtype: int8
        min:
        -   -6.3
        max:
        -   6.3
        scale:
        -   0.04941176470588235
        zero_point:
        -   0
        ori_min:
        -   -26.210926055908203
        ori_max:
        -   7.911808490753174
    '848':
        qtype: asymmetric_quantized
        qmethod: layer
        dtype: int8
        min:
        -   -2.412457227706909
        max:
        -   3.7667644023895264
        scale:
        -   0.024232241686652688
        zero_point:
        -   -28
        ori_min:
        -   0.0
        ori_max:
        -   0.9996337890625
    '849':
        qtype: asymmetric_quantized
        qmethod: layer
        dtype: int8
        min:
        -   -2.412457227706909
        max:
        -   3.7667644023895264
        scale:
        -   0.024232241686652688
        zero_point:
        -   -28
        ori_min:
        -   0.0
        ori_max:
        -   0.9653068780899048
    '850':
        qtype: asymmetric_quantized
        qmethod: layer
        dtype: int8
        min:
        -   -2.412457227706909
        max:
        -   3.7667644023895264
        scale:
        -   0.024232241686652688
        zero_point:
        -   -28
        ori_min:
        -   -2.412457227706909
        ori_max:
        -   3.6167492866516113
    '858':
        qtype: asymmetric_quantized
        qmethod: layer
        dtype: int8
        min:
        -   -2.412457227706909
        max:
        -   3.7667644023895264
        scale:
        -   0.024232241686652688
        zero_point:
        -   -28
        ori_min:
        -   -2.037677764892578
        ori_max:
        -   3.6821393966674805
    '866':
        qtype: asymmetric_quantized
        qmethod: layer
        dtype: int8
        min:
        -   -2.412457227706909
        max:
        -   3.7667644023895264
        scale:
        -   0.024232241686652688
        zero_point:
        -   -28
        ori_min:
        -   -2.1753432750701904
        ori_max:
        -   3.7667644023895264
    '874':
        qtype: asymmetric_quantized
        qmethod: layer
        dtype: int8
        min:
        -   -2.412457227706909
        max:
        -   3.7667644023895264
        scale:
        -   0.024232241686652688
        zero_point:
        -   -28
        ori_min:
        -   -2.412457227706909
        ori_max:
        -   3.6167492866516113
    '875':
        qtype: asymmetric_quantized
        qmethod: layer
        dtype: int8
        min:
        -   -2.412457227706909
        max:
        -   3.7667644023895264
        scale:
        -   0.024232241686652688
        zero_point:
        -   -28
        ori_min:
        -   -2.412457227706909
        ori_max:
        -   3.7667644023895264
    output:
        qtype: asymmetric_quantized
        qmethod: layer
        dtype: int8
        min:
        -   -2.412457227706909
        max:
        -   3.7667644023895264
        scale:
        -   0.024232241686652688
        zero_point:
        -   -28
        ori_min:
        -   -2.412457227706909
        ori_max:
        -   3.7667644023895264
    '878':
        qtype: asymmetric_quantized
        qmethod: layer
        dtype: int8
        min:
        -   -0.06919319182634354
        max:
        -   0.0663820207118988
        scale:
        -   0.0005316675001499699
        zero_point:
        -   2
        ori_min:
        -   -0.06919319182634354
        ori_max:
        -   0.0663820207118988
    '879':
        qtype: symmetric_quantized
        qmethod: layer
        dtype: int32
        min:
        -   -9.158867835998535
        max:
        -   9.158867835998535
        scale:
        -   0.0005316675001499699
        zero_point:
        -   0
        ori_min:
        -   -9.158867835998535
        ori_max:
        -   4.4776177406311035
    '881':
        qtype: asymmetric_quantized
        qmethod: layer
        dtype: int8
        min:
        -   -1.2849462032318115
        max:
        -   1.5125095844268799
        scale:
        -   0.010970414853563495
        zero_point:
        -   -11
        ori_min:
        -   -1.2849462032318115
        ori_max:
        -   1.5125095844268799
    '882':
        qtype: symmetric_quantized
        qmethod: layer
        dtype: int32
        min:
        -   -3.890071153640747
        max:
        -   3.890071153640747
        scale:
        -   0.003592661362227067
        zero_point:
        -   0
        ori_min:
        -   -2.6794071197509766
        ori_max:
        -   3.890071153640747
    '884':
        qtype: asymmetric_quantized
        qmethod: layer
        dtype: int8
        min:
        -   -0.9047538638114929
        max:
        -   0.4575546383857727
        scale:
        -   0.005342386283126532
        zero_point:
        -   41
        ori_min:
        -   -0.9047538638114929
        ori_max:
        -   0.4575546383857727
    '885':
        qtype: symmetric_quantized
        qmethod: layer
        dtype: int32
        min:
        -   -1.823042869567871
        max:
        -   1.823042869567871
        scale:
        -   0.0036875179840332164
        zero_point:
        -   0
        ori_min:
        -   -0.3470858335494995
        ori_max:
        -   1.823042869567871
    '887':
        qtype: asymmetric_quantized
        qmethod: layer
        dtype: int8
        min:
        -   -0.9587442278862
        max:
        -   0.5315983891487122
        scale:
        -   0.0058444808511173025
        zero_point:
        -   36
        ori_min:
        -   -0.9587442278862
        ori_max:
        -   0.5315983891487122
    '888':
        qtype: symmetric_quantized
        qmethod: layer
        dtype: int32
        min:
        -   -2.379894256591797
        max:
        -   2.379894256591797
        scale:
        -   0.0040340827307642985
        zero_point:
        -   0
        ori_min:
        -   -1.1303380727767944
        ori_max:
        -   2.379894256591797
    '890':
        qtype: asymmetric_quantized
        qmethod: layer
        dtype: int8
        min:
        -   -3.7913947105407715
        max:
        -   3.175724983215332
        scale:
        -   0.027322038014729818
        zero_point:
        -   11
        ori_min:
        -   -3.7913947105407715
        ori_max:
        -   3.175724983215332
    '891':
        qtype: symmetric_quantized
        qmethod: layer
        dtype: int32
        min:
        -   -6.471014022827148
        max:
        -   6.471014022827148
        scale:
        -   0.0015868482648309975
        zero_point:
        -   0
        ori_min:
        -   -6.471014022827148
        ori_max:
        -   5.584686279296875
    '893':
        qtype: asymmetric_quantized
        qmethod: layer
        dtype: int8
        min:
        -   -0.8018792867660522
        max:
        -   0.9556466937065125
        scale:
        -   0.0068922587469512344
        zero_point:
        -   -12
        ori_min:
        -   -0.8018792867660522
        ori_max:
        -   0.9556466937065125
    '894':
        qtype: symmetric_quantized
        qmethod: layer
        dtype: int32
        min:
        -   -3.4075961112976074
        max:
        -   3.4075961112976074
        scale:
        -   0.0005674925939170629
        zero_point:
        -   0
        ori_min:
        -   -1.1628775596618652
        ori_max:
        -   3.4075961112976074
